00
00
00
00
00
00
00
00
00
00
00
00
00
00
00
00
00
00
00
00
00
00
00
00
00
00
00
00
00
00
00
00
00
00
00
00
00
00
00
00
00
00
00
00
00
00
00
00
00
00
00
00
00
00
00
00
00
01
01
01
01
01
01
01
01
01
01
01
01
01
01
01
01
01
01
01
01
01
01
01
01
01
01
01
01
01
01
01
01
01
01
01
02
02
02
02
02
02
02
02
02
02
02
02
02
02
02
02
03
03
03
03
03
03
03
03
03
03
03
04
04
04
04
04
04
04
04
05
05
05
05
05
05
05
06
06
06
06
06
07
07
07
07
07
08
08
08
08
09
09
09
0A
0A
0A
0B
0B
0B
0C
0C
0C
0D
0D
0E
0E
0E
0F
0F
10
10
11
11
12
13
13
14
14
15
16
16
17
18
19
19
1A
1B
1C
1D
1E
1F
20
21
22
23
24
25
26
27
29
2A
2B
2C
2E
2F
31
32
34
36
37
39
3B
3D
3F
41
43
45
47
49
4C
4E
51
53
56
58
5B
5E
61
64
67
6B
6E
72
75
79
7D
81
85
89
8D
92
96
9B
A0
A5
AB
B0
B6
BB
C1
C7
CE
D4
DB
E2
E9
F0
F8
